101001110101001100101001110
100110011100000011100010011
010100110110100111110100100
101001111001000001001001111
101110010001110010001110010
110110010100110000110110000
111100100100000000111100101
110100101100100000100110111
101001110001001110101001110
101101001101100001100100111
011111100010010000011111100
100011010110011010110011010
011011000011011010000011111
111100100111101100111000000
000110010111111111010111000
101001111001001100001001111
111100100001000100111100101
000011011000011011100011011
011011000111111000011010000
111111111000111110000000000
000011011000111011000111011
111001001111001001110000000
101100111001000000101101111
001000100011000100111111111
000011011110011010100011010
000110110011110110000110010
001110010001111010001110010
111011010000011000010011010
000011000011111111001011000
010111111000010010000011011
101100011101100011100100011
011011101011001000011001100
101100011101100001100100011
101101100101001100101001100
011011010010011010010011110
001110010001110010001110010
010111010010111010000011010
101100111100100101100000101
100000100110100111110100111
011001111111001111000000000
110001011000000001110011111
111001101010000001111001101
101100011101100011101100011
101111111000111111000000000
110100100111100100111100000
010010000111111111011011000
001001100011111101001001100
011110010000110010001110010
000110111000010010000111111
001001100111001111001000100
001000101001001101111101111
010011110010011010110011000
011011100011011000011011100
011111110000110010000010110
000011011000010011100111011
110110000010110010010110011
001001101111001101111000001
100101111000100100000101111
111001001111001001111000001
101100001001100001001101101
111111111000000000111111101
101100100001100101001100101
101001001101001101100001101
010110010110110011110010000
