011011011010001110110111011111111000111111101001011000000000000110100000001001111101111011111111010010000001011011011000111000000001001011111000101111000000001011000101111111001001111111000110111010010111110011111000111111000000111110011011011111111101001011001001001001110011111011011000001001001010001101011010011111111111001000000111111000001111011011010000111101000001001011100100001110100100100111100111111000011111001000001001001011011111111000111100000101111010011011111011111010000110010000000111001101101110111010000000000100100000001011001011111110000000000000100110
000000010000000100111111101111011001111111111110111011000101111111011011000110110001110111110010001001111110000111010110111010110110110000000000110111001010100000000100110110111111110111110100011011111111111000010010000000001111111011000100100000010010100110111110111111011111111001100000110111111000110110101000110000000000111111011100010011110110110000100110000011011010110000000001011000111111110111011110111111000000110100110010110110000110111011000000011111111111000110110110111111100010011000110101000000010111011111111111111111111111100110110000000000000011111111111111
110110111100010000110000000111000000111001000011011000011110111111100000110111110110100010110000101100001000010111010010011111011001011000100000101101000110011110110110110111000000101000000010011100000000000011011001010110110000010110001111001111101100111111100110101100100110000111000000111011000011011001111111010010111100001001001111110000001001001110111010111111000001001011111000000011001000000010111001111000101100001001011111011011001001101101111010000101001001111001000011011001010110111000011010011111111110110100011111010111101000011111011000111110010111111000010000
111000000111000000101110111010101110100100111011101011111000000000100111111000000111000101101001101000110100110000001111010000011111011100110001000100111011001000111100000110100111000110111111000100101000011111010000100110000101000011010111000010000011111000101010100111111000000011110100011111010101111110111011100110000000000000110101111101111110000111010100100110100011111000001101110100100110100100011000100110110111100100100000000110010001100111100100110100110111011100000111000111101010011111001001000000000101001100110100100111111111010110000110000000110000100111001001
000000010100000000111111011100011011011011111001000111000000011011111111001001000000001100100110011111000011101001001011001001011111011000101000011011111100100101000001100111011101111111011101001001111001011000000011000001111010001010000001000001011011101111111011011011000000100000000111011111001001001001101011111001001111000011111100110011001000101001011011001101011111100100011111011011011011111001000010001011000001110111001000001000001111011000011011011111111011111001101111001011001001111100000000100001011100011011001001011111111111111001011101000001011001011000000011
100100100111101010011001001000000011111001011101010111111111111011010000111101111111010101101001001001100001011101000011010110000110111001000000001001111111101100110100010011000000011000101111001000011001001111110000111011000111011001100000111010001000101101101110111111111100000000100000110100111010010001101100101110110000100001111101001000100110000001000101011010101110100110100000010010010001010011011101001000101000100100101111000100110101001011011001001001001001111001010101001001111010100110000111010110010011001001110110110011111101000110101010101000111010010110001011
010011010100011111100110110100110110100110100111000100101011010100100110001111110011001111001110010110111010100010000011001011000001111110110111100100111001011010001011111100111111010100111101010100110100000011001010011000001111100000001010111111010001111010000000000001101011111100110110000001100011001011001011111011011010101000110010100111011001001001000111010100111001111001000110111000101111010010110111010111100000111111010110001001011101000111000010111110100100001011100101110000011001010111011001111101100101110000010001100000000110011001010101010100001001000001011000
001000001110000000101011100100000100011000111011100111011001101110100100111011111110000000001001100100000100001001111001100001010011000100000110111000111111011001111000001100001100001100111011000101011011111011010100110100111001011111000000111011001111111011100001001011110000001100000100001000011001001111110000000011000100111000101001000111011001011111100100101100000100110000001000011001001111001100111011000000111000100001000111011011111110100101001001101001001111101000100011011101111100111111100100001001101001010110001101011111000111011000111111011101111100101001011111
011100100000011101110001111001111111001110000000010110111101101100001111101010011000000010000110110110000110111010010110101000111010011000111111000110111000010110000010011000110010100001111011001011110101001010101110010100101111000100000111000110010010101110011110011011000010001000011111000010111110100111011000010010100100001110111010100110011000010000100100010001011000010111000111101000111110010110101000110100000111111001110000110000111001010010010111001110000010000110111111001010111101100111010011111000010111101011111010000100000110111000011111010011111000010111101000
001101110000110101011111001000110101000011001110001101011101100001011111000010010001010100011111001001010100000011010110001011000110100111100100110001101001110000000010100001111000110001111001001001011001001111101000011001011011001101110100100011010011000100010000011001110110000000110001110010100110110110100010110000000011110110011111000010110110110100000110110001110110110110010010001110010110111001001100110010010100110110110000110100110100111001011011110011111001111110010001111001000001100001110100000000001011101111100011001111111111100110110001000001000111011111000100
111000000111000000101110011110001111010001110011000111111111010101100111111000001110000000000010011111111011111100010100100100110100110001000011000101111110000001111000100110100100001100111111010000111010010001100000101111000101101010000111110100000101001000111110110111100000000100000000000000110100100110100000000101001000000001111000111111100110110000000000100100100011000111000101110010101010000100111110000110000001001010011111100110111000001111100111110001110110110000101010010000111010000111000001111101000011011010111101110111110111101100100111100000110100100111111111
000110100001001010011101011111110110111111111110110100000000000010111100000101010001011101001001111001110000011111011010111010110100100011110111011011110101101101001101100111100111011111000101111101111111111110110100001011001010111011011110110110111001100101001100110000011111111011010110100111100110100100011010000010111010111010110001111000110100100011110100010110000110100110011011011111010101010011011110011110011011100001001111111100100000011011000001111010111111100000111100111101011111001000101101010111001001001010100100000010110000110100100011111001000010100000001000
001001000101110000100111111001010101100110101111000000111001011101001011101110010111001000011110010111001011001110011110001101000011111110000110001110111001010010101011000000011111010000111111010010101100010111001010111000101010101010111111000101100101111100010000111101101011001001010000011010001010011000011001110011100000001100100110000010011011010011000100010001011011011000000111101000101111100100101001010101001110101101110100000010011100010100000100111110100010101111000101100010000100011111010000110100100100110110110011101000001011011001010101000000010001000110110010
101111101101101011011100001110100011000111100110001000001001001000100101101001000000011001111101001000110011111101100011011011111101000110011100110011100001101001001001011000110101111110100001101001001101000111001011001011011111001000110011000001011000101101100100111100011001011011110011111111001111011001100011011011111010110000110111001000101111000100011011110010100111110000000001111000011001111011010100001100100011111100001011111001000100001100001001111111100100111101000101101100001011001010101001010111001001100101110111111000100100110010000001011011011111111001000000
001001111001000111111001001111101010110011011111111001011101111110011000100000010001000110001001011011111000100000001011010000110110010011111000111011000001001101001000100101100001111011001100000000101001111111011000011011001011001001011011010001001011100100011100100110001001100011001000001000000111011001001000110000000111110111011011011001111001000001001011111110000111100000001000001111011001001011011111011111001111000000001111011011000000011111011011011111001001111000001101000001001001001101001111001000111001000011110110101111001000110110000001000101101000111001001001
101111011111001011011100011001000011011000101100110100111111000111011001100100010111110001101001111010100011010100000010111101000100111000000111100010100100100110110010010110100111000100101111101000110101101100110101011011000101011001100010111011010100101100000110110011110001110011101011100100110000010111110110001110111000111000011000001100100110110100110101010110100110100111101000011000110101000011011101000001100010001101011011000110110111001001110010110010100110111000011000101110001110100110010000110110000011001011110110000011100111100110110111011010110111001101001011
101101101111100110011010111111001000000000000010111000101110100111111111101000111000000000100100110011111111101100100000111101000000100011011111011111000001000000101100101111000001000000111111111111100000000111111011101111111100100100111111111111111111111111001101100101111000100000011111100000000111100100101101111111111111111111111000111111101000111001100101111111101000111011000000000101100000100101101111111110111111110000111111100000100011001111101000101011000100111111111111000100101000000100100000101100101010111011111111110011111111101001101111101101100000100101000000
111111000001001011111101000100000100011110110100110100011011000110000000001011011100001011011001010000001100011011010010111010000000111100000000000100000001011011011011011100000011110000110011011010110111110111111110111111000011111110000011111111110110010100100000000000001001011100000000011011111000111110011000011111111100100000100110111000010111001101101011110101000111000100000000111000111111000111111001100001000000000000011111000111011000110111011011011111101110011001001111110110111111010001011011011110110111111010010010000110010000100101100011111010011001001011011011
011001010011101111011001000001100000001000001100010001111111011001010101011100000011011101111001010001110101011000000100010000010110100101001100100010100011101001011101101011100111001010101001101010010001000111011100001011000010011001000111000010010000100100000100110101111001111001101101011101100010110000001111111011011000100100110101011000111111000001011110000110101111100110101100010100110100100010010101100110101111101100100110010111000100000111111011000011001100111001110001101000011011000001001101010001000011001001110110110111111101000110100010000010000010010111111011
000110100110110110010011001111011011001001001011111001000000100110011010000000111110111110110000100111011001001001001001011001101001001011111111011111011011011000000110110111011001011111011000000000000011000101111000111111111001011001010111110001001001001001001000001001111110100111111110100000101101001000111111011000000001000000111011111011111001000111111111111111001111100110011001101011011001001011001011011011111111011000010111001001001000011001001011000111011001100001101000001000000011001100100110001001001010001000011001101011001000001001101000000101001111011011001000
111110111001011011000000010100000000000000101001001111111111111101101010100011111000001011001010111101001001110010111001101101100001111001000001000001001000010110100011011000000000000000000011010111000100010001101011001101111101100010000000001110101111110010110100111111000000001001000000010010111011101111100001111111111111000000001000000000001001001000000001000001111001000111111110111010001111011101101000000001000000001111010001001011001110000101111011111000000000101111100000010110001000010111011111111111111010110110011101111100100010101001101010110111011101101110110111
000110110011111010100010010000111110110111011000100101000000000000111110000110000011111110000011010111111000000110000000110110011011000011111110010110110000100110001011110110111010000111010001001110000110110000000100000111111000011000000110100000110100000000101010010001000111100001111010111110111010000000011111110100011100000110110000111111011000000011111111000111111101000000111111011111111111011111111000110010011111010111111110011111111001111111010111010110111110000000000000111110000011010001000001000000000000000010000000000010111110001010111001001100000011110001011010
111110110111100010001101111001100001110111011011001111010110110001001001100111110000100100100110110000000111100111111010011000000011111001000010000001000100100111100110110100011011000000000010110011100000010001000111111000100111011010111110000110111111100111111100110110000100000000000100000111111111011000000000100110111110111111011110000100000101111000000100000001001000001111111111001110101000111111000110010001000000000111110001001111000111011011110010000011010110000111101110111111000110110001110010110111010100110110100011001000000110000001111100110110010000100010100100
111111000001101001110110010111111101110011100010110100000111010000000001111111100100110100111110110011110011101111101010110010010011001011111000010111000100111101010111001110111101011111010101111010000111010111111110010110010010111010000010010110111100000110000000011000010111000111111001011111111111111000000110000111111010001011000011111010010111000100111010001011000010011001001011111010010110010110110000011111000111001011011000010111010000001110100110111011111010111111011100110100110111010011111111110110110101110010000000000000010010000010000110111100000010010100110110
000001101000000001110111100111110100111111111110110110000000100110110110001101101101001000110100000100011010001101000000001011000001011111110110111110111001001011000000001101111001110111110100101101100111111010011010010000000110011101011101011101111011011101000001001011001000001111111100001101111001111111000000100000101000111110000110000110000111111011001100101001010010110000001000001001000011101110001111110111110000100111100001000001111111110000101001111110111111001111110110111111000000111000101101001010101110101110001011101110111110000011111101100001001001101000001001
011001000001001011011100000000100001110100110110010000111101111010001100111110100001001011011001000000111100110110100101011000000110110111101100011000111011100100011001001000100100111100100110000100111101100111010110011001001111101001011000011110010010110100100100110110011001011001100001110110100110010010001011111000000000110100110001001000110110000001001110101011100110110100100000011000111110011001011100000011000001111000000011000110000100000001000001011111110100110110110100100100011001100010010001111100100011001000110110110001011100100110100110000000001011110011001011
000001111110110110110110111110111111000001011001001010100100111000111111010000111001110111110100100111111111000000101000101101111011000100111111001000110110010100000000100111011011000111110000000101100000101000111111000100110100100111100000000000001011011001001001001011110100111011111111101101111000100111001011111000000110111000110100111111001001111000111110000001110111011001110100101000000111100100100010001111110111110110100100100100000111100110100111111000111111111011111000000011000101111110100100000000111100110111001001111011111111011001001000000111001001110111111111
100100010010110010111011010111011001011111000111011000000111111011011110010111011000000000010010011111111011010111111011011010000000001111111010111011000000110011000110010111011000111001000010011011000111010101100000001000000000011010111111000111111101100110010010111101000000100111000000000111101011011000000000000100110010111111111011000000001111001100000000011001000000101101111111000011011000111011000111011000111000000111111011000010000111011010011011011011011000110111010110111010000100010010110011010111111010110110001011001000000000101101001000110111010111100000110110
000000001001100000000011000111111000101111010111111011001010000000111000000110000100101100111111000100111000000001001000000101111110000111110000110111000000001001000000000111101000111011000000010011000011001011111111000000000000001001111111000000000000111111111001101001011111110111111100000011010111011111000101111000000000111111000011000101011111011111111100110001111111111111111000000110100000100100000111111111110111100010110000011011010110111000101000000010111001111111111000010001000000000101111111000000000001001101100111111111111111110111111000000000100100100001111111
000101101000100101111011100100000110111001100111001000111101111001001100111010110100000000110100100100000110010001110111001011000011111100100100111101001010010110000000111000011111111010101100001100111001101111100000101000101111000101111101100010000010111111001010111111000000101000000100100110010111110000100000101000000000111011111111100100110101000100000001101001001110010100000110110110010010111111001100100001100000100110110101110010000111110001000110111110011101010110000110011001000000101111110110000010110101000101111011111001000110110011010000000101101000111111111111
001001011000100010001111110111111111100000000101001101001001111001011111111100101001010000101100000001110110111000101011001011110111010110111111111001110101100111001101111011110110101111100001001111001001000000000111001001111001000000111110110001001001101001111111011011000100110001111111110110110010011111000110111001011111111011001100100110101000110100110101001001111100110100110110110011010001111000001110000110110110110111101000110100110111000000110100110000100000010110000001001011000001111110100001000001001000000111011011111000111111010000111001001111101011111000000100
100100100110110100011111000011010001000011111010001011000100110011011011100110100000110100001110100111110001000100110010100010110110111011011001111010011000110110100110110001110101011001011000111111000101111110101000011101010000000111010100100100110100101101101000100110110100100111010011110110110110110000100100100100101111000011000011000000110100000010110110110001010111001001110110100110110111010100110011011100110100010110100000110100100010011011100110110011111011111010000001111111000101010100110010000111110000100011100110110011000010110101111100111111000110110100100100
111011011100000001000010000101001100001100100011001000111111111001001001111011000111001011111110000000001000101001001101001001011111010000000000001001000110011010111010111000001001000000010010000011001100111011001001110000100001000000011001001000000110111010000111001011110010101001001000111111011011111111100001111010000010111101001100000000011011011110000001001001001010011010001001001001001101101100000011101001000000001011111001000011011111100100101101001001000001011111000111010011100000010111110001101101111010000110001001111101001111001011010100110010111101001110110111
000001111100000001011000000111100101101011001111111110000000111111000000000011010100000000011001101111000000101111011011000110111111111111111110111011001100001000100100111101101000111001001000001111111111111000000000110000110010000111000000000101010011111111110000000001000000000111100100011011111000001011100000000001011111110010000111000000011011011100000001111000100111111111001000001000000000101000111110000000110100101000000000111111110000000000000000000000000000011010110000001000110000111111111111101001111000000001000000000000000000111111111111111111101000011000000111
111111000011011000101000100001000101110110100111000111110111000011001111111111100111001000110100100101000101110110100111101100111011101001000001001000111110110100111011001100010100111100111111110100110110110111000100111101010110111100010100001110110000110111000111001001010010000101000001111100000111101100110000001111111000000000011010100101110100000110001001111001100111011111110000100111001000010100101001000000000000111110000100110100100110000101111100100100100100110000000111110100110111100110110100111111100100100000111101110111111111110011001111111111111111001110110100
011000001110010101001001110001000101000000101000000111110001101110000111101010000111101100111110000010101000100000000100000101000001011011000111000000000101110010111010010001011000000000111100100010000100000010011011110100101101100100111010101101100101111100000100000111111011101110010111001000011011011011111111110011001100111100101110100111001011111011111111010001111001001001011110101110000110111000100011010100011000111111100100001001011111110100110110011000000000111010101000000000110100101101010010000000000100110100010001111011101011011001011101100000110000000111110111
001001001101100100111110111110110110111110011111011000000001001000100100101000011101000000110110110000010010111011111001001001001011011110111110111111010100010011001001011010010011111111100011001001011011111111000111100101100011111001110101000011010011011010011011011011001000001010110100011011001001001001111001000001111110110111000111111010001001011000001011101001001011110000001000001101001000111101100010011001110100010110000000011001011110110000111101101011010011011010011111011011001001111000110111001011111111110100001001001100011011001001011011011111001001001101100101
111100110111010110111100001011001000010000001000001011100010010111111000000000111011111111100100100011111001110100111100110110000000111001001000000010111110000100111111110111000001010111001111000001110000000000111001001111000100100000000001110010000100111000001010100111011111110011001001000000111000000110011111111111111111000100010100111001000111111001111111000111011011001101110000111000110111100100110000000011001011001001111111000111111000001011000110111101100000111000011111000001100000000000100111111100001111001000010110011111111101001100111111110010010110110100100100
001100101110110111001100101011010101101101100111101010100100100011001011101000100111111011111010100011010010000100100110100101000110110010001011111001010100110110101110101111011111011001111100100110101100101000100011001101101101100110110110100101100100101001001101101100111111111001011011100110100100100110101001110000100101011011000111101001110100111111111001111001011010111011110000100111100100111100100111011100111011001110010100110100100011011100101100100011110101100011100111100100100100111100110010000100100001000101100100110011011110100100101000000100100100101100100110
100100111110110111101110100110100100110011010111001000010111111111011000000110100100100010110110101100110100001111100000101111100110111110110100110000010001110101100110111101000101111000000010111100000011111111100100000000000000110110100100110000100100011001000000000110100100111110100100100110110100100110000100110000111011111100100111100000100100110100100110111100100111011001110100110100100100110100111110100100100100110110110101100100110111001000100100110001111110111111100001011100000110100011111001000111011011111010010110100100100100100000100000110101000110110110110111
011111010011011000011000111110100111000100100011011100011111010111000101100111011111111001000100111111100111000101011011011010101111001110111111100111100101101111111011001100110111101100100000111001000000111001001100011011011000010010010111011100110000000111011000110001011111110111110011101111111010001000011111000010011000100110110010001100001000100111111110111111100101111011100010111100111101110011111100111111110111111000011010011001110100110011100100110000100110000100011000100110011111011101111001010111000000000100000011001000000110111011000111111001111111001000000000
111001000100011101100100110000110101000110111101101011111001100111001100101110000011011111000110110000101110101100000110101000000011111000101010001110110101110110101011000000111110000110110111010000110100100010101010111101000110110110000111111101100000111001000111010010111011111000010101000110111010100110011011110111100000001110111110100100000100110010111111010101010001001011100110111100110100100110100001110101000011011001111111000110110001110110100100110000100111001010111110100101110100110111000000110000000111110000111010000000100110111000010111001000111000000110110110
000000001000000000111000110000000100111111111111111101000000000100110110001001001111101111111100011000000101101101101100000001101000101000100000000000000111000100001000000110100111100111110101100100111111111001111111000000000001010111100011111001001001001000000001001001111111111000000000111100111000000101001101111000000000100000000000111110000000001001111111100101001111000000000000100001000001100000000101111111000000001100101110000000011111111111100000001111111111000000111111111111101000001000000000000100000001101101101101101111111111100001001000000000000000000001001001
000010100000000100000111111000001010101111111001011011000110000100110111001111011100101100001010111000000001000111011000111111101001001101000001000000011111011010100000000100001011001011111000110111111111111001011111010111111001111111001001011000111111001111110100111111101001100000000100000000001000001111111101111000000000001000000000010111001001011011001101000101111001001000000000111000110111000111111101000011001000000001110011001001011100110111000011111101111111001001111000111111011111110011110000000111000000111111110111111111111111111001001000110000110100000111111110
100111010000001011101001110000000111010111111111100000000011001111000100000111111100000000100100110000000110000111110000111111000001101101000100111100111111101100000001001000001111111111110100101111111111100100110110000110011000111011100100111001110110011001000000010011100101111000000111000100111000100111100000011101111000000000111111010110000100111000000111000100111111100100000000111000000111000110111100000111100000011000000111000100111101000011000001111011111111111100100001111110100011011100100000101111111011011000000111111100110111000110111111101000000010011000111001
001001001000101111111111001011111011001000001111001000100000001000000000000000000111111110011001001111111111000000000001001001011111110000001000001001010000100101001110101000011111011001000100000000001001001111000000000000001000000001011111010001000000111000000001011101011111111111111000111111111111111010100111100101101111111001001011001000111111000101111111101001011111111111011111111001111111111001011001001001011111110111111111111111110011000000001000001000001000010110000000101100000001111110111101100001101000000000001001000011111111111110000100100111000000011100111111
111001000111000100001000101000100111111111111000011111011000000000001111110010000111111100111100111000000100111000000111001000111011000110100011000001111110110110111010100111110000110000111011001001111101001000001111100001111111001000000000111110000000100011111111111000111111110000000111111010000111001001111111111111100000000000111000000111111101000111110110110011111000011011110100000111111101110001000000001101000101111000000101111100000100000111111110000111110111000011111111111001111001100010010110111000000001100101110000001011111111100010001111010000111010100100000000
100110111110110000000110111111110000100011100111101110000100111000000010000110111111111110110110000111100010000111101001001111110011011110110110110110100100110111110110110001011001111100010001111111000100110100100110100100111110100111111111000100110000101111010011011011110111111111110010110010110010000101110110111000111001011110000111100010100000111110111110011001110001111101010000000111001000111001000111111000111111110110010000101000100111011000111100101111010000100111100000111011100101111100110000000110111000100111001011111000000110011001001000111011000011111000100100
010111111010011111011001111011011111000000001000100000000011011011011011001000111011011011100001111011001111000000011000101111100000111000111111001100111111000110001111111001000111000111111100111111100000011000111100011111000000000100000011110000000111111001000000001111000011111011011111000000111000100111001011111010011111011010111001111010000111111011011011001110111110110111000100111000000111000100101001001111001011011000011111000100111001000011000101111000000111000001111000000100101000101110111110000000110000111111000101111001101111001111110110101100111011110000000111
110010110110111110111011011110111000000000001000000111111111110110111111000000111011110100001011010111111111001000011000000101000000001000111110000100110101001010100110110111101000000111000000000110001000010100110111000111110000011011111110110010000011011000010011000011110110010100111110000000000000100110111111110011010011100110110000111111000000001000111101000110110100000000111110110000110111000001100111111010000110101100111111000000011000111110000111111000110011111111011000000010010010101101101111010001001111111111111100111111111111000001001001000010000100101101111111
010010100000010010111110011111011011010011111010111110000100100010110000101001011000101001001011011011110001001111001010110101100100101001011011111111110001001001001001001111001001011111011111110111011111010001111000011111000001111111010011101111111101001011001101101000100000101111110011000000010111111101000101001011011011011001110001111011000101111001000000111110000000010111000001011011101101000111110111011111011011001001011011100100111100001011101011001001110011001001011010111010011111010001001111011111001011011010100100000100100000110100101111111111000100100001011011
110111110010111011001111000011000110001001000000000100000111000000000100000010001000111011000001111101010000010011000011111111111111111111000000011000110000000100110111011100101111001001000011011001000011000000000100000011111000010010110000110001101000000000100011111010000010110111010110000000011000000000000111011111111111000000100000000000001001100111111111000000110101000000000011011001111011000011111001000010111010111011001010111111101001000011000111111001000000000000000001001000010011011100101001011111010010011000000000000101010111111100100111111111100111111000011000
111111111111011000011100010111000000100110100100010101000111000011001001101111100011011011111100000011000110100111110010011101100111000110000011000010100110110110011111010001100000111000110101111010010111100110000011011001001110111101010010001110110100100110010001111010111011000011001000110110000111110101001011001110111101110001000110000100100100100011011001011011011100110100111110000101010011111011101000010000000011001111000000100100100101010100111101100011100110110110000011111100010111100110010110110111110111100000000011111011101110000110111011111111010111011000100100
000000100000100110011011011011111111101011011001111010001000000110000010010101100011110110101101010011011111000001101001100100111000000001111111001111111011111000100101100111001101011111111110010110000011111011011011101110111000001000001111111000000001011011001100000100001111110011111111111111011011111111011101110100010000000001000001111111011011011011111110011111110010001010000000001001000101000100111011011111001111111000001111011010011000001110101100101001111011011011011010010001101011111000110110000000001000011011000000000111011001011001111110110110101100110000000101
000000100100110111000011111000111111100011011000111011100100110001011011000100111100100110000110111100111111000000111000100100000001111000111111010111111000100110100100110000010011000111010100000111100000011000101111101100000000100111100100111000000111001000011001111111000100100000111111000010111000110111000000110100101111011111011100111011000000111000100100000011010000011111000110111000110111000111110000110111010111110010110111000110111010010010000110111000110011000010111000000111100100011110100011000000111100111110100011111100010010000011111111000000000000000100100111
011001001000011110000110011000111000000100001111110000111000000110111111111100000011011111011000000011111111111110100000110000111111110011111110000000000011110000011011100000011111000111100111110110110000100111111110100000000000001001111111000111110000110000000100110101011111100111111000011111010111111110010111100111011101101111111111111100111110000011111110000111110111111000000011111000011111000111100000111111000111110011111100111111010101011111000011111111100001111111000111100001011000000011001000101000000100000001111110100111111111111111000111100110000000000111111101
001101010011001011001100011001101011000010001110000100111101010011001011100110111001000001000111010011110000110110101111010111100110100101001001111011111100100110000000110000111001011001111111100000110100001100000110001000110110100000111001011000011101111101100101111000000000000001001001100100000110010110001001001100100101001001011011001111100100100000000011011000111111100100011111011000011011110010111101000000100001111101011011100100110000001001000011011111100001111111000101100000000111111110010000010100111101110011111010101001111111111000110100101100110010010110110111
101111000001011011001001001000000101000000111011101001111111111111000000111111101110011111001000111000011011100001100011011001001011111001000100001001001101101110011011011000000111001000000100001000001001001011011000111001001001000001011111011110000011100101100100011111011111111000010111001011011011011001110111011010000100111010111001100000011011011011111111111001001000110111011011001111001001011011001111011111101011001111111111001011011111100111001001001000000001000110111100101111011001001101011010101000101101001111010001001001000011010011010111001100111011011001001011
110111111111111100001100010001110011000010011111011011000100000011011011101110010101111111101110010011010111101110110110001001000110111010010011000010110101110110111111110101110110110011010101111010001101110011001011111101101000101101110110001101011010101110010000110110111111110101111011100100000110101101100111111011111111000110011110101000000000111110111011100011111000110111100000101100010100110011001111110011111111011100100000100100111110110000100100101011100010000110010101111011011101101110110010010111101100100000000010010000000010000011111001111010110111111000000000
100001000110100000000110101010100011111111110001001111100001000000110011000110001111111000110110001000010000010110101101001110011011000000010010010000110010110011011111011011011100011110110010011000111110000000101111100101011111110110111001111010011000010011001011011001110111011011010011010011101000001111111011111101101000110001000100010011000101111111011110001011011000110011010100111001001111101100000111000011110001010111001011100100111111101000101100111011111010010010111100111000100111111110110000100111000000110110001101111000011111001001111001110000101101000100100110
111011010111100100110100100100100100100000001000110110010110111101100001111001000111111100111001010000110100001000011000010110010100110000100000100110100111101001111101100110000100100100000001000100001010011000110110111110000010010010000111111010011010000000110011101000111111110100100100110111110100110110101100000011001001110101100100110100000110110111110100001110010000000110110100000110100100010000110110100110100110100111101110110110100000100110111110000000100000100101110010010011111010010001001111011000001111111001011111100111110101000110110001000110011010001111111111
101101100011111101010011001011001011110000010010011000000011000000110110110100000010111110111001001000011111010110000001110110001000100000111001000000000110101001011111100111100100000011011110111001110111101111011001001111010110111011001011010111101011000101101100100100111111101001010111000101101101010000010111111101111010111100011000011001101011001011111110000110110011001111111101000111100010000111010111000011011111010011001011101001001111000011100011000100011101111000010110101001011011011010101101110111010000001001100110110000011101000110100110111101100110110100001000
100110111100100100111110000111111110011011010011111001001100101110110100110100111000110100011001101111110100110111101000110011100110111101110110110111110111101001000100110111100100111111001010001000110111000001011001011111010111011011001011110010011001110101100110110100000100000111110100000001111011011101000110110100010011111110110001011000001011001001110110110110100011001011100100000111110000100011011000100110111111110001000111101001101100100010110100100110011000010000111111111001011011011000101101111110101011001000100110110111110100000110111110111101111110110000000001
111011101111010101001010001000000100011001111101100011111111101101000000110110110100000000011011100100000001110111111111100011110110110000000001001000011010011001110010000000001110000000011010011111100010001100111001111100001101110011010000001100101110000011110100100110111010101000000000011111111101111011100000000101101111001000100000000001100110001100000000101100001001011111111110111110100110011100111010000101000000000010000100011010001000000110110100000001010011001001110010010111110110001011010010101111111011011101110110110100000001100101101110110010111100000111011011
001111011001101010000111000111110000111010100110111110000101111010111000000010001001011010101101011001110010000011001010001011000110100110111010110010111000101011000011011111110001110111000101101001100101010000110111001001011001101011100000111000010110100110010011011100000101110111111010100111101010011101001011011000111000110110010011001010000100111000011011010011110100110110110001011111011011110001001110010111111010110100011001100101111110011001001001011100111000100110110000101010000001011000101100000100101001101011000011001010110000100110110001001011001011011000000011
001000010000000100110110000010111110110100110111111010111110110110110101010100001101001000010110000000111101010100001100110110000110010111111000111110111011001001001000000010100111101111110110110110110110110110111000101010001111110111010011111000100100011000000000100111000000000111111010110100110100110110101001100000000001010111110100011000000110110101000100100110100010011000000100110100100110100100111010110111011001111000111111100110010001101111100100110110110100000100010110110100100110000011011011110100100110110000100100110011110100100110110100000100101100111011110111
010110001111110000111001110111000000001101001111111000110111000111001100010111110110110000111100110110101000000101100010011110000100000111110000111001001011101000100110011000101111111011010011111100010011010111111000110010000010011100111110000111111000111111000110111011101111000111100000111110000110110000111110000010111011111000000111000000111110000111110000111011001111101000101010000111001000110010011111110000111100000110110100111000000111110000111100000111011110111111000010111110010010100000111000010011000011001100100011000011001000110111000010011000000111011010010000
111111100011011001010111000111011000111111011011111111110111000011011001010010010100000100111011011001011001010011010100111000001100000011011000011111011000000001110010010011011111111111010111011011110111111111111011000000000110110010100000000111111010111110010111111010100001010110001000011111110111111000110000000111111111100111011110011011111111001110100100010011011001011001011111011111111010110110000111011011010000001110011010111111010010011011111111000111111011111011000110111010100111111010000000111111110111111010110010000111111011100110100111111111010010000111111110
101100100000000010011100110011101111000111111111110000000100010011111111100100010001000000100100111111001110110110110010010010000011010110000011111111010100100110100100010000110111101110111100100110100111111110000100100000000000010011101000001000110110110100110100110110000000000111000001100110010010110110000000100110110110011001111100100110110110110000000000111010000011001001010110111000100110110010010111110111000000000111100011100110111111010011110110110010110111000100111110111111000000110110101000010110110100111110110110110001000111110111100101101110010010010110110110
100110110110100100111011000111110010011001000000011000100100000111110110110101000000100000110000100111110100111011101011110001100100100111111111111111111000000000100100000010100000111111101111111111010011000101000000011011001101011001100000000011011101001011001110000000000000000110110110100100100111100000000100000101111111010100110111011101110100100000000000111111100101100111111100000111111000100000000110100100110110100100100000110100100000000000111100000011011000111101000011011001100011101100100110111011111011011000101100000000000000000100101000111111000000101011000000
111011010001001001000011001000001001100101101100100110110111010111110000010111001010001001000011011101011001111111100110010010000001100001001001000000111010011001011011001010101001100010100111011100110010100110110010001010010010010010000011010111111000110100100100100000011001011001001001011101100010110000011011001111011010000101101000011001000110010011001000000110110100100111111001011000111110000010010010001011011001001000001011000011010000101011001011000100111110111001001100110100010010010011001111111111110011011000010110000111011001000110100111101000010011000010011011
110110010100111110000001111100011100011011011010100001100001010000100111101011011010111110100111000100000110001011011000001111000001111000100110001000111001011011100111111000011011000010011001111011001011011100100111110100101101011011111110100010011011011011010000010011100111110000110110000001000110100101000100110001111011111110111100100100000100111000110110000000111100011101100110101100100111111110100111000111100100000111111000101100111111110010100110111100011011001011111010011011110000011111111000001011011000011010001001001000000111100000111000111011000101111111111110
000000100101000101100011101101011000111111011001101011001100111000111110000000111100100100001111101100001000100000111000000011111011011001111001111101001000001101000000101111001000100111111000000111100001111000011111110100100101100111011000001100001111000001111100000011101110101100001000001001011001100011010101100001010111011101000000111111000011011111101000100100000000011011111101100110100110101110100011101001111101000011101000111010011011111000110100100100011011001011011100001111100100011001001101100001111100101111000000111100001000011001011100000111100000010101111111
100100000110110100000111111110111110011011001001000101100000000000011111010010001100110010110111100110010110011011001111001010101000001111110110111010111110110110110100100010111011011011110011001000011111001100100110011001010111111000111000000010011000000011011011011001110100100110111110100110111101000000101100000000100000110111010110100110101000100110000010001000111000100101110111000111011000111001000110111000111100110111110000111100100110110000110110010011111001100110000011011001001001101110100100000110111000110111001011001000000111101000011100001001101010000110100100
110110110110110100000000101001000100001000100001010011111110110111001001111111110101101001000011100001001001101101011111110110110100100001001001001100000011101001101111000000101100101000011110110100110000100011111001110110010110110010000010100101101011111101111100100100111011010001001101111101001110111000110100001111110010001001111011000000110110000110100000111100000001001011000100000100100100100110110001001100000110001000001111110110000001101110110100100101000100001001011110100110110110000011011011111110010011101001110110110111100000110110100111100100110110100010010000
010101000100111101100100000101110100101010111100100110010001001100100100001011011111011010011110110110111000001001011110001001110010010110100110100010111001010011001011011101110000110100110000101101010001011110100110011001101111101001100100110001010010010010011100010011111111101110110100000010100100101100100001000011001011100110110110100110100100110111101110100001110100110100000010101101001110111100101100110101010110111100110100110100110100110101000001111110101000100110110100001011010101010101001011001001001101001101000001010100000010110010111011011001001001011111001101
100100100010111111001000001000000011000110111101000000000111111001000001110111101000010011000001111101000001110110111100111110111111100101000000000100110100100110110110011000110010100100010000000000100110111000000101100111111110111111101101100000100110001000101111110111010110111001000001100100110000000110110110101000100000000000111000000000111100110010111111000110110111000000110111111100111111000111111000000000000111000111101000100110110000101111000110111000010111110000000000100111100110110111011011000110010100110111010110110101110111111001100000010000111111110110110110
100000000000000100011101111011011111111111111000110111000000000000010111110000100000000000101001110000000110111111110010110110111100111100111111110111111111100101000000100110100111111111111101101100111111111000011111000110110110111111000011111010010011111111101111000001000000000001001110110100101000110111000000000110110000000001011000111111000000111000000110000110111011001010100011111000110111000011110000011111000001111000000111100100111000001011100101101111111111010001011111111111100111101100000100111110000101111000110000000110011111010110111110110000100000000000000100
000100100100000100011011011011111111011011011100111111100001011000111111001000111000000010111001011111111111101001011100011001001100111111111111111111111111000110000000110011111011011111011100000011100001001000011111000011101000001001100100011000000111101001111001010111000000110011111011000000011000010111000010110000000000000111110000011011000000111000110110000111111111100100001011111001011111000000001000010111100111110000000110100000111000010011001011011100111011001100111011001011000001111100100100100011111110011011100110111001011011000100110000000110100000111100001011
110110010100000100000011111100011111111111110011111011011110000000000111101101101110100111101100100000001001111111000110110110101001011000000011001100001101001101101111111111001110001011011010100100111111110001000011110110010111110010100100001111101100001001100111000000100100111100000011001001111100100100000101101010011010001000100100011000001001011110100101100100111001001011000110111100100100010110100001100000000101011001100110100001011101100010100100101111111100001001111111011100111110011001100111111111010111111010100100110100001011110100011111111000110110010111111101
000010010000011011000110011100110110110110110011100111011011011100100111010010100000000000001011010100000010011111100011101111111111001100100111100110111000011011100000000100111100011100111011011011111110010011000111101100111111011010100000000011111100011111110000110101000000000000100110010111111000110111100000100011011011000000100000100111001000001000000110100000111011111001000111111000110111000101110000000100100100110100111100011010011100100100000100111101110010001111100001010010011111011011011011111011111011011010110001111000100011110000101000011000001001010111111011
000000000110000100111010110111110100011111011100000001000000101111010000111001011000100110110100110111000100111111111011111000001001111111100100111110000100100111000000100011110110111010010101101100011011111101000000010010000010010111110100001111001001001011111001011111100100100110100100101001000101000000100101000011000000111110111111110000100000001010100100111100000101101101111110000111101001111110010111110100110100000110110101101101001111110111011110100111111111101110100011011111011000001000000100001011011100100111001001001000000000000000001001000100000000101000000101
001001100011001001011011001011111011000011010101111111000100100010111101001000000001011000001001001011011011001000000101010011001001101011111111011011011111001001011001001011011011000011111100101010000101101110011000111011101010001101111111011000000010101101001001010010110001000011111011000000000101000000001011000001000000110111111111011011111000000001011011111010111110101000011011011011111010111011111111001011111011011101001111111001111111111111011001011000101101111100010100101000001001001100100000000000000000001001101000100000011000101110111000000011001001001001001000
100011000000001011100111001110101111100100110001000111001011010100110100011101000101011001111011001001111001110001110101110100100100101000011000001000110001001001001001001011101000001100101001101101100111111001011011001010000100110011101001110011001100011001000101101100000001011001101011011001101001011111001011101111101001101101110001011011001011011000001101001110111110111011001101111001001111101001010100001110101001111011001010000001011111001011001011011000111000010001010101001100000010011011001001101101101011011000001101100000111111001000101101101110101111100001011011
000100101010101101001000000001100101001111111000111111001001111010011100100110111000011111000101111001100100000000111000001011011010110000101111100100111001101111010110110110100000000010101000001101000000011000001111001001101000000011000001111000000011100100110100110110000100101001100100000000111001011111001001011100100110110110110000001111000000111001011011100111110000100111010011001111011110000011011000100111100001110110001001001001111100101000000011111000001001000000111000001001001001011000001111000010011000101011110010010001011000000000111001001011101010011001001011
101101101001001000011001101011101011010110110110111111100001001111011111111100100000000011101100101000000110111101110111011001001111111100010011110011010111100100011001101011100110110111101111111111111111100001001001101011001111011000101001001111110110100100110111111110001001001010001010011100111001011001001001001110110110111110111000011000001011110001000001001011001000100110101000000001011000110011000100000011100001010110101101101001111110100011111001001111110100010100100111101101011001001010100100111010111001101000101111111001011100000110110111111111111111111000000000
110110110111111101111011001111011001000001000000000101000110001100110111101000100000011111100111101111011001100000000100110011111000000111111111110111011111011000011111010110001000111011011110101101100000100000100111010111011000000001001101111100000010000100111100100100111111100111111011100000000101100001111011011111111100000000010011111111111100100010111111000111111111100110111001000100111010100111011000000011111111011000000111111001001000000011111111001010000001111000110100000000111011001000000111101011001110011001100000110111011000000000110110111111000110011001001000
011011101001101101100101011100111101100100101111110000000000001100000101101101100111011001000001001101111111000001001000010011001111010000000111001000000001001001011011111000001111000000011100100111100100011110011000010010111000000011011111001000101111100010110000000100011111011111111100000101011010111111001001001001011111111011000101010010011111011111011101111000001010011010000001001000000111001111011101111100111111000001011000001011011101101100001001111100000111000011001100100101000010011111011011000001011100001011100100011111111011111111100101101111100001001111011011
001001000000001111010011111000111111000111011111111100100000000000001111100000000000000000000011111000111111001000000111111000111111011000011111001111011000000010000001001000111111100111111000000000011101011111111000100100111001001001001111000110110111111100110000111001000001000000011001111111000111111010000100100111111111000111111111111001111010000000100100111001000111111011000111111001111111010111101000011111000011100100111011111111010000011111000001101000110111000011000000110010111000001111111010110010100001000000111000000000111010111111000111101111111011101111111000
101110000101101110011001011100111111001011101011011000101101000000000111100001000010100001001001011010100111001001001011011111110001000000010111001011100101001011100101001110100111000001111111111000011001001011001011000010111011001010001011010001011101101100101110100000110101011110110111111111001011011001110100011110110010100001100000001100011011001100110010011110100011011000100011010000011101011011011100011111100111110001011110011011000000011100000101101011001111101001011111101001011111011110001010011011101001001011110101001010100001011111000110101100010110101001001010
000110110000000111101000000100000101111011011111000100000011110111100000001011111000000111000000111101000000101001010001111111111101000100000000111000001111011000000100111101000010111101110100011100001011010111100111000111111000011111001000111000011111000001110001110111110111111101000111111000101001100111001111111000101101010000100000111111111000000000001111001001101111000000000000111000011111000011111111000011101000000000000111101000001000000111000011111111011000111000100101011100111111111000100111000011100000011011011111111111110000111101100000111110001011111000011011
111111011001011001001000111001010111001100110001101011011010000000000010001111000101001001001001111001000111010110100011101010100001111000000111000100110000000001011011001000000110000000010011111111000100111011001000011001000000000000111011011011111001110110100111111111000000000000000101000111111011011011110000001111111110111111111001000011010111111010000001111101110000010101000111111011101101101110111111001101100000100011001001000000001111001001011000111110100110000111111111111111000000000000000000111110110000000000111111111000000000111111111111111100111111000000000000
001000000011000000010110111110001011110110011000111111000010110000110111110100101001000000100111011001111000111100111000010010011101000001010001110111111110101101001000000111101000101111100110100110100110110000110101000010110110010010011011000110101101100101111111101100101000000000101000110100010111110000111000000111000101000001011000011101110010000100010000011110100000001111111111000111111100100010010010001111111011100010001010101011000000101011111110000100110100010101010110110110100010110010000111110110110100110110111100110111111111001101101101000111100000000000110111
110110000100011111010000000110010110111101111011111000000010000110000000111101100010111111111010110010001111001111100110110010111001001111011001111111000001001000101101011101001111111011000001111100100011000111000000110110000110110110011110001111111100001101101100100101101011011100001011001000000111000000010110101010011000001000111111111000011001000011111001110100000001001001101000111111100000000110110001110011011111001001010111111101000000111111111100000010011101111001001011111100111110000001111110010111110110110100110100100010000000011101000110111000010110110111110100
001101101100110101001000101001111111000000010111001010100100100000011011100100100000110110000100100011111111100000100101001111100010011011011011011000010100100100100110101000110110001011001100100101001000100111101001101001111101000001110111101100001001100100111000111111111110101001111111100100111101101000110111111000100011000110111111100101111100100110111111110001110001000000000110111100101010000101001010111111111111111100100111110100101000111010000110111011000100000010111001000101101000000110110100101100011100101101111110010001000000111000010111101101100101010111100000
000101111111100101001100000111111001000011101000011111000000100011001011000010011100110110011110001010110010001011111101001100111110000111111011110011100000110111111110111111010001011111001001101111001001001000100111101101000001000001100001111000011110000011011001010000110110111111111000110110101100101110000110001001101110010011000000101111100100111000111000001111110000110111110110101110010000111001001010011111110111110100000000111100100010011000111101000001001001000110111001001101001101110000110111101001110001001111000011101001110000100010010001011101101100010100100111
110100010011000110111000001011100011010111011100111000100101000000010111011000010100000110111001011100000111111110010110011010010100001111011010000011011011101101111100110000100111111111111101101000110111001100001110000011000110111001000111010101000011100100101001011011010100110001100000110101011000010001100110111110000100101100010110011000110110000100000111100011001110100100000001011001011011100011011100100011000101010000101011011111011100100011011001011111101011110100010101101001110001000110100100111110000111101001111110011111001101100110100111100000110011010111101001
011011011011011111110010001110100110000000110100100000011011111101100100011011011011001000010011011100100110001001011101111011001011011111100110000100110011011011011011011000001011000000010011011001001000001100000001111100000001010010110000000001111111011011011001011010001011011110100110001011011001001011001111010001011111100100110111010001011011001001100010101100110110110111100100110001001010100101111100000110100100111010011011010011011100100110001011111000000100001011011000000001011011011011011011001011011011011011001011011100100010101111010011111011011011011011011011
011001101011001111010010000111111100111100001111011000111001111011111111111000100001001101010000000111111111111000000111011001111111000111111111111111111000000100011001000000111111110111000100000100110101100111011000110111111101111111111011000111000000111000111010111000011001000111111000111111001111111000011001100111000000000100001011111001111010000001001101010010000111111000001111111000111111111010100110011110011111101111011000111111000000000111010111010111111000111011000110100000100000110001000101101000101111100100111000000010111000111111000100000111001000111111111101
001000001000100100110011011111111111111001001110111000000100111000111111111001100101100100111001000010111011001001000100110000011111110000111111001111011011101101000110100111011111000111011000000000101001001000111111000100000001001001111111111000000000100000000101001000010110101111111111111111011010111111000110110000000000111111011000111011010111010000111110000111011110111111000010011000100110111000000000000111000111111011110100010111110111000000001011111100011001000010011100001001000000011111110101000000000000001001100110111111111111110111110100000000101100110111111111
000000000000110110100111100110111110111111110011001011000000000100110111000110100000000110000010100111010000000010100000101001111011001011101010011100111000010001000100110000111110111111111100010110111110110001001011000001111101101101001001001010101111001111110000111101000010111100010001011011001001001011100001111000101110000111100001000011001001011000001110100001011011011001000111111000100111000101111000000111000000111111101100011001011010110110000110111111111110000011011111010100101101101101000000101101000100110110111101011001011011011001011111010100100101100111111000
111111100000001001000000111011000111000100111001111010000101100111010110010111100110001001000100111000010111010111110000111010000001111011000011001011111010000101011001010001000110001010110000110110000110110000001110111111000000110101000111011000110110010100110000101110000001001001010011000011111000011111111011011111111110000000111000111111000110111011011011100111011110000100000111111000101111000110111010000111011001011000000111000001111010000110000001111000110111000000111000100111000100000000111000111111110000110100000110110100011111000111110111111000111111000000000000
000100000100000000001111011001011001101011110001000111110101100001100011110010000000000000011011000001001000111010111111100111001100000000000011011000111110011001110000001001011000011010111110011000011111111100100111100100110010111111011000100111111101011011000101011100000000000000001000000010000000110111000000000101111000001001111000000111100111111000000000000000111001011001111111110100100110111100110001001100000000111111001100110000011101001100100100110001111011011001000011111000110111111111010000010111111011111010010010111100111111111000111100110111110000010111111111
111010000110000010110011001111001011011001100001100100001010000100110111110101100110100000110001111111101011110001100001010011111101000101111101001000111110101001111100000111001101001111111111100010100010100101110101000111111000011011010011001111101100110000111111101100110000000111000011111001001001011011111111000101101001111000011000111111111011001000010001001110111111000000001001011001001111001011011111000011001011001001001011101010011000000011001001011100011100111001011110000100110011111111101010101111011110011111111100000111110000001111100111100100011011000111011011
011000000110000101011110011101110111111011011001001111101000000011110110001010001101001000010110011001100010001001001101001000001011111000001110010001111001010000001000000011110111111111111101000101111100010000001111001001000111000000100011111001000001011011011001011000110000001000010110000000101001001111101001000110000000011011110010001111001001111000001000101001110010110111000111111001011111001001011010000011000001110110111101000101111111011001001101111111110011000010101011001001001001011111000001101000001111111000101011101101011111101001111111000000101001000100011011
110111111101101100100100110100100111111111011111011111010000000101100100101011000111101001111110010100000010111111011011101111001011011111000111101010111101111011001111010101011011011110110111111000111111110010100111111100001011111110000000001111111000011011010101011000000011010100000111000011011100001101000000000111111111000000000110100110000001001011000011111000110001011111110000000100000111111010101111000000000000110100010110001001111111010000110000100111111110000011000111111010110111101011010110111111111100110100000001000100000001001001011111111010011101001000000000
100111100010111010000010000001001011000110110000000111100110111001000001110110110000011000000000110001000000110110110010110010110111000000000001000100111000110110010111000000111111000000100000010010000110111000000101000000101000110110110100000000100110000111111111111110010111011011000001110111111110111110111110111000110000001001000000000000110110000110111000010010011001001101110110110110111111000110000000100000010100111111110000010110010001000000000110000000010010000000001100111110000110100011111111110110110000100110111111111000000000110111000000110000110111111000110100
100110110100000100001111111110000000110010100111111111001010011111111111000001101000111011100000100000000111001101101000001111000000000000000000111111010101001001101101101111000000000000000110111111101101010111111111111111111101100111111011000111111111111111111000000000111111111000000000001000000111001101011011011101101000111110111001111011000000001101001001100100110010110111101000000111001101101000111111110010111000000000100111001000000111110110001000000100111110111111111000101111111001101100110110101101100011111111110111111111000000000000001001001000100100111011001101
100101000111100000011110001001010001100111110000001111101100000111100000000010101110010100001110101001010000000110111101101010100011001000001011111001110010010111101000101111010000011101111100110100101100111001101010101101000111101101000001111001001101000111101111011000111100001001011001011011001001001110111000100100100101011101011101001011001001111111000000111001010000010111111000100111000000100001101011001011011001010010001111101000111011111111111101000011110001000010001001100101101100101000010101110100110101110100010111100111110110010001111101100101111100000101101111
000000111001110111111100000110000000110100000111000000101111111111100000000010111100010111000000001111000000010010101000101111000000111110000000100000000011001001001110111111000000111000100101000110111100110111010010011111110001101111001111111011010101111000000110110111101110110110000000000000101000110111111011111000000111100000000111001000000011010111011111100110100111100000001000100100100111000001111110111000000101011000101111000001111000100000000001111111100000111000000110001011001011011000001001000100100111000000100110110111111100001111111001010111100111111001011011
110110011111010000110011110111011100011101110111110000010110000111001001001001000110101000110010100110001100011111101110110111100100111111111111111110001111001000111110001001001110011011011010011010010011010110110000111110000110110011110110000111101101011011000001100101110010000110011100111101100110100000010100100011011011111000100111011001110110000011000000110110001111011000001000110110100111101110110011110000111110001011110000110110000001110110010010100110011111111111000010011110110110000011111000001111111011011000100100101010001000110110100110111011100110100011001000
111000000111010000111111101110111001111101000001001111111110000100110110111000000110001100011011001010111101111100100110110100111100000110011000111110000101001000111100000110101100011010000111000100111011000111011001010110110111010000111000001111101000000001101111100000111001001010001101111001000111100000110110100111001001000001101011011011111001001111111100110110100011001001111101000111110000111110100110111001010000001101001001111101000000001101111100000111111001111001001111011000111110110011001101111100100111011000100100100110110000110100000100100110110100100111001001
110011010010110110001011000000000000011001001000000111010111110001111111011011110111010110110011000101011001011011000001101001011011101001000000001001001111010110011111110001011001011000011011011001011011011100100111101101000011110000000000000010011010010010001001001001110110111000011100011011011001001011111011110011000110011001001000000001001001011111001110001001011100100100011001001011011001011101000011001001000000010110101100011011001011001100011011000011011001010011000011011001011001000011110100001001000111111100001011011011011111001001001011011110001001000110110100
010000011010110110100000010101001101011000001100000101111111111001001001010111111100000010010010000111111011000010011100100100100001011101101001000100111110010110100110010001001010101001011010010110000000010110100100110100100000100110110110111100001000010010011001001011000010110111001011010010011110100111110100010100100001001001001100100100000110000110100010000001001111001111011111111010000011000100100001111001011110011011110111100110110010001100010110110101001011000010010000000010100100100111010110100100000010010110001001011111100011000001011000000000100100000111110111
011011000011001011011001010010101110010000100110110100011011001100010111111001010100011011111001100100011111111001100011011010001001011100011110110100111111101101011011011010001111000110100011101000110000000111010001001011011111110000000011011111001010110100100110011011000001011111101110001001001001011001100011011111010000111111110001011100001011011000011011001011011110101110011011011001011001011010010110001111000111011001001110001011001110000110011011011010000000111001110100100000111011001110001010111110000010000100001111011000011101000111001100101001001011011011011011
000000010001100100111101000001011000111001001000111111001111001111111000011100100111110100011001001011111101111001000000100000111101100011000101111111000111001001111100100111000000111011001011000000111111001110111011100111101111001001000000110011001001000000101011100100111100000111000100111001000001110001011100100011000101100111100011011001010111010011101100011110100100000011111000000011100000000001011000001000010101000000100000011111000000101001111011000111001101111000000011000011101011000000000111111001011111001001000100100111111001000110110110000110001100111111011011
000001000101000100000111111100010100111010111011101111001100101011111111001110111100100010111110000000111110011000111001000001000011111000100000110000011000110110001000100000011111000100000001001111001100111000111111100100001011101101110000110010010110110011001011011001000000111100010100011111111000101111100100110111110000111011000000100010000001111100100100001001011000010111111111000011001000111100000111000110100000010111000100000001111111000110011101010001111100010011110001011111001100100010100110011100010011110100001001111000111111001001011011000100100100001110110111
011010010100010110100110011100000110110111100111100110001011011111100000001011110000001001000011010110100000000011010101101111000110111100100000110100110000011011001001011100000110111100011011010000001010011010110010111100001001011011100000100011101100011010000010011011000001111100000110000010110000100111000100000001001001111111110101110110000010111000100100110100011111001000110111110000100111000100110100010100000000100100110000000110111011110100000110111111111111111011110011011010001111011001001011001001000011011011001001011100110111010000101011000000001000001011011111
011111110011111111000111000011010001010010001001001110000001111001001011111010010000011111011110100010010000011010010001001011001011100010000011011001010010110110010111111000011001010000010001011000000011010101001111011001001011101010110111000010011011000011010000011001011011111001011111011011001111001001000011111010111010110111111111000010000000111011011111011001011100110110011111001011001000111101000010011011010011011111110010111100100110111100011001001011010000000110111000011001001001010110110100001001001001011111001011001000001011000001011000011010001011011110110010
001000100001000110111001000011000000111000001100111111111100110111001000010110111001001111110100000100001110001000000001001001000111111101011100111101101110110000001001111001000000111001100011000001111000000000011111111001000110000000000001111111000001110110000011011011001001111111111111010000101000011111011001111011100100110111011100001110000000111101011111001011001000110110111001000001011011000001001110001001111011111100011111000000111110111001011011001101001000000110110111000001001000000100100111100000100111101000011011111111001110000001111111000000101001001110000010
001000001101000100101000001000111111000100101110111001000000000100000011111000101001000100110100110000000100100100101111100111100101111100111111100001000111011100001000100111100101000001101110100100100101101000000100111101111111101011001001111000000001001001001000001000000001000000000111100000000000000100000000100000000101001001001100100111000000101000100100111101100011111011000000000000000000111000111101000101001100100000000001101100111010011011100000100000000000000000000100001111111001101100000100100000101000000001000000100000000000111001111010111111110100100000000001
000001011100001111000000000111000101111111111111111000111111101100000000000011110101000011011011111100000011100011010000001011000000000111001111101001000000011011100000011100000011010000111000000111110010111111100000100000100011111111111111111101111111110000000000001011100000011100000100000011010111111110101000001000001111111111100111111111011010110100000001111000001010110100000001101111100001111111111100111000100000001111111011011111000111111100001001011010011111000010111010111011010000101101111010100000111000000100100000001000000000001011010000000011100000001011000010
011011001001011001000000111100110111000110111101100000011001001000100111111010000111001010010100111111001110110110010011001011111011000100111110000110110011110110011011001000010111100010110011101001010101011010101010010101011111101001001111000110010010010110011010000010001011001110011101001011010011011101011001010011011001100000100010100110111001000001101011000001011100110101000111111001001110011110001000110101000111001101110000010101001100010100000001001110110110000110111100101111110101001111011000111010011100101111011000000000000110111010010110011000001001000101000000
110100100110110110010010100001100000011001011000001001011001010001111110001011011111111111010000000111110100011001011011001001111011001110110000000000111000000000111111011011111001000001001001001011001000000000011111011011111001000001110110000011011011111111111111111011111111110100110100011001001001011011111111111010100101000111111100000100000000101111111110001111011000100100010100000011011011111001001111111011111111100010010111001001001110110011011011000101001001100100110001001011001001000110101111001001001000101111011111011011111110001001011011000011001011011010000000
010010110110110110100011000110011100111001001011001001010010010100111000010101111110111110010011010110001101111001001011000000001001011011011101001101001100011000101111110111001000001011001111010000110011100001011101011010000010011000001010111011101001110000010111001000100110110110011110001001001001001011111111111010011011000001001001011000011011011111110111001000001000001011011001001011101001011010010011010001111110111010011011001011011010101000111011000100011100001001001111010010010010010000001111011001011110011110001001001110101001001001011110110110010000101000000100
111111000111111001000010111001010011000010000100000110110111000001001011110110000111111000011110100011011000010110000100101010000111100000000010000000111010110110111111000001011100000000010011010000110011010100110110111101001110100000011111110110110000000000001101011000111111100001111011110110100100100100011111000111101000011011111000000011110110100111111101010011010000110111011011111001110010110100000011011111000011111111110100100100100111010101001111000011010000011010011011010000100101000110110000100110000010011001000110000000010111110110110011111000111111000110110000
001000000010000100111011000110010001111111011101100100111111101111101000111111010001000100111111011011001000110111011111111110001001000011000000110011000110111111000000100111111001110111010110011001110111011000000000100000000011111011011000100110111011100110011110111000011100100000000000111111000011001000001001101000000000111111111110011000011011000101000100001011101111101101111011000111011001110011011111011001001000000111111001011111010111111111111011010110111000111000000110111000110111011001000100110111000110111111111111001111111111000001001000000000111101101111111111
110110010000001011111001000001000000111000000110000100001011011101001000011011011000010011000001001001001000111111111011111010011001011000001000011001101111111001001111011011000010001010000111111101110111100111000000001011011110111011001001001011111011110110110010011010001001011001000001011000000011011000000011011111110111001000111000010100111011000000011011001011011111000100001001111001011011001011011000000001000001111011101101100011000010000101000001011111011100111000100111011000111011010111111101111011010110011000011011000101000000101011100101111111011011011111011001
