011000000111111111000000111111111011110110110111111011000000000111111110000000001011001111011001000111111111101011001110111111010111100000000010011000110101101111000011011000010000111011011110010100111111111111111111111110100000000000000000000011001001000001001011111111100000011110110100111111111010000100111111111111111111111111111001001001000000010111111001000100011110110100111111111110111101011001001111111111110111011000000010111111111000000000111010000111111111011001001110101111110110100100111111000000001000000000000000000001000011101111111010000000011010100100110111
111101101001011010010011010010110110000010110001010010110010110001001011110110100001001011100101101100101001101101100010001011001001011100101101100100101001001001100101101011010101101000000011010010011001101001011010001001001011110100010110110100101101100101001100101101111011110011010010000001001011010010101101001100001001101001001100101001111101101101001001110110001011010010001011010001011011110110100100101001001001001010110100001011010110100100111110110101101001101011010110100101011010110101001010010110100011010110110110110100101010001011010011111101101010110101011010
010110110101101101101101100100101101101101101100100101101101100001101101010010010010010010010010010110110011010010010101101101101101001010010010010010010101101101010010110001000100011001001001101101101001011111010010111001001101101100101101101010010010010010001010010010101101101101101101101110010100101101010010010011010110010010010010010010010110010010010010100101110001101101001101101111111010011011011010010010110010010101001101101101101000100110101111111010010010010010110010010011101101101100101101101100000101101101010010011010010101101001001100101110010010010101101101
111110000000111110000011111111111111001011101000001000011011111110110000000011111100000101110111111110000001111010000000000001110110000100001111011000111100000101100100100001100000000010011000111101001011000000010111111111110000010110011111111100100100111000101000110110001111000000101011001011000000111111010001011100000000000011111111000100111000110110000100000000000001011001011111010000000011111111111011100000000000001001111000000001001000000000111111111000100111110110100010000110000111111001001101000111111101111100111111010010001111000001111111111000001011111001011001
111111111100011011001100110111100000001110110111011111000000000001111111011100100000001000000000101111110111110011001000100010100100011000000000011100100000110100110111010111111110100000000001001110111111111110011000100000111001000110000000110011000000010100100110100001111110110001001110111110101001001110000000000110110001110011001011100100001100000100001011000110100001000111111111111000001000111111000111111111000000000111110110000100000111100000111111111110000011110001011111110110001011111000100001001010010011111110111111111011101100000110000011001000000001011100100011
111111111001001000011111111000000000000010110000000000010110010001000000101110110000000001101110101010101000111000000010010001010011001100110100100110110011011001001100100111111111110110011001111110011000000000000010011011001111111111111111111110100100110110010110100000011011011001110111000000001001110110100000000010000000000000010100110100111111111100000000010011001010010011001001011100100000110110100011001101000000000111011101000000000110100110111011011001000000100100110001100101000011111110011001101111111111110101111111111110110100000000000111111111101100000110001011
011001000100110011001100110001011000110101110110111111001000000111111111010001100010001001000000000100110110001010001111110110101100110000000000011001101101110111111111011101101111011000000010001100100110010110011001000110110010100100000000000011011001001001110011011011101100110010101101101110011111101100011001000111111111110010011011001100001000000010011111111100111001100100100110111111011001001001001110111111110011011101100010100100110111111111101100110110111011010011111000000011110111101101101110000001000100001000000000001010001111100110011001100100010001101001100110
101101110010010010010010011010010001010010011011011001010010011011011001101101001101100101101100100011001101101101100010010010010010110100101100101101000010010001011101101010010010101110010101110010010011001001101101010011001100110110010010010101101100101110010100100101010010011110010010010011101110010010001101101101101101101101101101100100101101110101101100110010110110010010010011001101101101101010011001101101001001001010010011010010011111101101110010010100101101101101100011101101010110010011010010010010010110010010101100110101010010010011001100110110101101010110010010
001011110100101101001001011001100100100100101100100100100000000110100101001001010110110110011010010110111110111110010101101101111110100010010110011010010110110101001001011000000000111111111101101001110100100100100100111111110000001011101111010011011110011011011110110110000001001100100100110110100101101001111110110111111101110110100110110010011111111110110100001001101100101101110101100111111111011011011010110000110110100001000001110100101000001011011011011010100111011100010010010110100100100111100101000000000100000000000000000011010011110100001001111110111000011100100101
001101100010010011001100010111000001001100111011011011100110000110010011001101100001101100001101100110011001010011101010010011110010010001101000001101010010010011100101001110110111000001000101100010110011001110011101111011001100100100010010010001101001101101010110101101110010010111100010011011001001101010001001101001001011011011001101101010000100000001011101100110101101010010011010111001101101111001011111101011011001001110110010100010011111001001110110111001011011101101001110110101010110010101010010010100110110110110101100100101101010011011011100100100001101100111010010
010011101100110010001101110100110000001101110100110010101101110101100010010001101010011101011001111100010011110010001101100110101100010010001001011001101101100010100010010001101100011011101011101100100010011110010001101110011101100101011001101011011001011101100010010011101100010010101100100110010011101100010011001100110010010011001011101100011101110010011101101100111011100110100110011110001100011001001100110001110011001001100010001100110111011110101110111010010011000011101100110011011101100101110010111001101001101100011001101011101110101100000101100111010011101001110010
100010010010110100110001011000000010010000110100110111011101001111001100000011101100000000000111010000000110011101001111000101111111111000000000100001000010010010111111111111111111111111111111110001000000000101100101111000000001000001111001001010111111101011000100100101001111111110000111000110111111011110111001000100111111000000101000111110010011000101111000001000001001000000000000100100100000111111111000111110110111100000000111111110110111111111011000000000100111001111000000000110100010111011000100000111011000000000000011000000100111111100110111000000000000001011000011
011001100100011001001100110000010000001100010100110001101100010100110001111001100011001100011001110100111011100011001100110011001110011011001110011000110100010011100010011000110011011000110011101110100110001010011101100110011001100111001100111111001100011100110001110001100110011011101110000110011011001110011001100111011000110011100011100110011101110110001100000110011001100110100011001111001100011001000100111000011001100000110011100110011111111100101110011100011001110011100100011001011001110001110011011001100001110011110001100011100110000100011001100011110001100001110011
000000000011010000010111100111110000100100100111110111110111111000001111111100001011111111100001101101000000101011111110111011000000010111111111100101011110000010100111000111111111000110000010101010111111111111111101000000000000110001000010000101000001100100010101100100100110111011011010011101111001001011001001101001001010111010000111001010000000000101000100111111111111110010000000000000000000000000000001100110011111111110111011111111110011111111000000000111000000101011110111111111111001010100110110111111111111111111110000101101001010111111111000000000011111100100110110
000111111111100010110011100000100000111001000000000000111110001011001110100110001111111011011011111001101110001100111111110000011001110111110101100011101011111110001111100000000000001000111110010001111000010111100010111000111111111011100000111000111111000111101011001100001000101110010001001001110110010001101110111011111100001110100000111101111111111000110011111110000110011100000000100111111111001001011000000000110110111011000000111001100000111111000001101011111000000110001001101000110011001111001101000000000011001000000000001100011101111101000100111111111110001011001001
011000000100110100000011111111111111111111111111110100111111111111110000001001111111000101111111111111011011111000100000000000100100000001011111001111111101000100000000000111011100010110010010101110111111111110010111111111110000000000111111111011011111011011001100110110100111111000111101111111111000111110111111111001000000111111111101100001000000010111000000100100000111111110110111110000000000111111111010110011111011110001110011101111111000000000001000000000100111101100100111101111000111111110111111000111111111111111111110100000111111111111111010110010011111001010110110
110000001111110100111001001000111111100100111010000000010111111111000100000111101111111110111011011101000111000011111111011111111111000111111111000010011111001010101000001000000000011011111111111000000100100000111111111100000111100010111001000101111011000001011000111111000000001011110010000011110111101000111111111111000100000111111101001011111111111100111100111000111100111100100000000111111111000111011000000000111111111000000000011111111000111111000000000101111110001111100000000110010110000110011101000111011000000000000000000000001011011111110010000011110111110010011110
111000111000111100010111000110000001011100001011110000000111100011110000111000011000011110100001111111000111100001111000111110000111010000011110111000011100001111111000111011110000000011110001111000111110000001111000000111110010111000000111000100000111100000111101001110111000010011111000111101000011111000000001111100000111111000110110000111100001111000011110000111001011111000011110000001011111100001111111000011000011110111110000000111100111000111010100011101000110001000111111000011011110000000011110011110000111110000111000001111000011001111000010110001001111100000111100
100000111011100011110001110000000010110001110111000100001111001011000011100111001000111001000011001000000110001110001111001100011001110001111010100011100000001111000111110111100001000111011111010001111000000011100001111000110111100001111111000000111101100011100001111100011000100111100001100001010111100001000111010000011111001111000000111100000011111000110001111001110111000000110000101000111111001111101000000111000111011111000100111011100100111111011000101000011101001110001110001000111100001011010100111110001111000001000110001100011100111011000111000011011110001111000000
100100000011011100110010101010011110010011011001001000110110111011001010100100011101111111101110111011001000011101100011011111010011100101110111101110000011001101001001101000111010000101111100110001011101000011101011011101000110100100110110110001101101101010111011011100010011000010010011001001011100010011101111111011011100111101000101010001111000001011100110010111000110010011011000000111110111101000111001000000001111111010011000011011011000000111110000000111011000111000010011001000111010000010011111100110111000110010100100100101010001011011011110100000101100011010010110
000000000111111010011111000000000000011111001000011000111011010001000111111111010111111111110001111011000000001100111011101111000001000111111111110010001111011111000100000111111111000010011100010111011111000001010010000000000100111100111111111100010110010101001111110100100011000110011000011101000000011000000000010000000010111011011110000001000000001000000111111111100010011011110101111000000000000000000111111100000110111011111011011010000000000000000000000111010000100000110111111000110011000111111111111111111111111111111111111010001001111111001000000100110011010011011000
000000111111000000111110000100111111100111000110110111111100111100110111110010100111111111101000001101110000000001111111111111001001000111111010100111011001001001001111111111111111111111111010100010011110100111111011000000000111001010000000000000001000000101111001001101000110111111100000100010101111101000100000100000100111111000100000011011000000000001001111011001001111011001000000000000000000111111111100111000111111111011111011111001100000111111000000000111110000000100111011111001111001000011001000111111111111111111000000111110010010111111111000000000110100010111001000
111111100000100111001001111010100001000000111100100111001000110111100100000001011101000000110111110000111111111101000001000001111111000001001001000111001111111001111001001110101100111111111111000110000000111000000101111111110001000011111101000000111011111011000000100111001011011100000111010100110111000110011111000111111010000000111100111010110111010111110000000000000000011111110111110111101000111111111000111110110100000000000111011000111111111011111111111000110111001111100000000111000110111111000010000000101000000111000111010000101111000000111111110010000100101001000111
001101101000001110001101101111000000111000101011011000100100111001011000011100111000000011000100111111000000110111010010011010000010111100100111011100001111000001111001001111111101100100111000111010001111000100011010000011011001111111000111111100000111011100101011000110110111100101011000110000001101100011000000011111000011110000011011100101000011011000001111010011000000111011001011010000000011100100111111110000000000011111111000100010001111100100001011110000000011111001000111100000101100011100001010111111110111111100111110110011100001000110000000111001100001111100001110
111100101000011110011110000011000000011110000001111100010011110001011110011110001001011110100001011110100011100001111000011110000001111100001011110100001110000011110100001011110101100001011001110100011110100001011110000011110000110100001010100110001011110001001100001011100001010001110100110100011001010100000001111100001011101011010110001011110000001100011110010100101011011110011110100100001111110000001110100001000011110011100001100001110111100011010110100100001011100011110110100001011010100100001111011110100011110100011110000110101001000011010011110101001011110100001010
111100000000110110000001111111111111000011011111111110010011111111000000000011111100000100111111111011000011111110000000000000110110110001001011101001101111100100111101001111010101111111111100010100000010111000000111111111110000000000111111110111111101111001001000110110011011011000110110110111011001111110111011111111010001000001111101101000110100000111100000000000000010010010110110110000000000111111111100110100000011010010010111011011111010000000111111000000000111101101000000100111000100111011000011000000111000000111111111010000110011011111111111110000001011001010110110
111000000100111000000100011000001001011100011111111000000000111111111000011000110011000111000000111110011001110011100000111111000111011000000111011000111101010001110010001010011000001000111011100011101111000000011101000111101000110110000111010110000111001000111100010111100111000011100011100111001011100001001001111111000111111000110011000111001000111110001100000110011001111001110111000111000111011000111111110000011001111000111000000111111111000111100110000101001111110011100111000000011100011000111110000000110011111000111001000011000011000101111000110000010100111000111100
100111111111000000111000000000011111111000000000000000011010111000000111110001000111111001000100111000000111000111111111001000000111110111110000010011001000011010000111001000000101000110111111100100011000001111000000100110111111100011111100111000111111111111000000010101000000111111100000000000001111000010100011111000011110100000100000111110111111110010111011111011000111100011000000100111111111000000111000000000111111000001000000001000100000111111000100000101000000000111111000111000111000100111001100111000000111000000000111011000101101001000100010111111111111000111000000
101101101010010010010010010010010000010010010011010010010010010110010010101101101101101101101101101101101101101101101010010110010010110101101101101101101010110010101101101010010010100100101110010010010010100110000111010010100100100101010010010101101101001101001101101101011010010010010010010010011011010010101101101101101010101101101101101100101101101101101101010010100010010010011010010001100101110011111101101101101101011010010010010010010101111011110010010101101101101101000101101101010010010101010010010010011010010010101101101101001001010010010011100101101001001011010010
111110100101001011001110000010010000001111110001011110101001011001011110001110100100001011110100001110100101110000011100000011110001001000001001010110101011100001110100100001111100100001011101011010001011110101011010000001011011011110001011110110100001110100001010101001110101011001011100110100001101011110100001011110100001100000011110100001110110101110001011010110100001011010001011110100001011111100001011110100000001011011110100100001011111110101011111100110100011100001011011100101101001110110101011001011110001011110001110100010101001000001010011110110100011110100001011
000000000100110110001011011000000000001011011001010011011011111101100010100011111101100111111111101010001000111000100000000011010111001100111111110110100011011011000100001111111111111111111101001110001010000000000110111011011000000000111111111101111001100101001100110100010000011000011111111110010001010110001001000001010000011011111100110100000000000110100100000000001010010010101111011000000000010011000111111111001110110111011111011000111000000000000000000000110111101100100100101101100110110110011111101111111111111111111101111100011001111111111000000000101001011010101011
000000000000010100001011011111111111011001001110110111111011011010100000011101111100000100110010110000100110110000100001000000000110100011011001110110010000010110001011101111111111111111111100111000110111100101100110000100100000000000000110110010110111111001010101100110011011011111101010111111010100000011110110010010000000010001111010000111000000000100100111000000000010001000000100100000000000111111111000000110100100110011011101111111011111111111000000000000000111110101001101100110100100110001001100111111111111111111100100011110011001111111111000000000110001011011011100
000011111111000111111000110000011110100011110100000111111100001111000111100011100111100000001111000000111100011110001111010001111000111001110001000111100001111100000111000000000111010111000110000111111000111111000011110000111111000011101000111000111000001111000001110000001110001110000111000010111110000111000110100000111100000111000000111100111111000011110001111011010111000110100001111111111000011110011000111100011110000110000111111000001011111110111000111010111000000110001000111000100001110111100001100000001100001111000111110000111100111000101111001111111000011011000111
110001011010110101100001111100001010100001011110100001110100001110100001110001011010100101001010110001011110011110100001111100001010110001010110101001110001011110001011110100101010010110100010100001110100001011100001011110100110000011110100001001011110001011110101010100001110100110100001001011110110101011011110000001011110011110100001010110001011110011110001101011010110100100110100001011110101011111010101011110011110100101001011011110100011011111111011010001011110011110100101001110010101001001110100100100001110101010110101001101010110011110100110100001010100101001110100
110110111001100000111011001111110110000011001000000000111111011000100100011111011100000000111011001000100100000100111001001101000100100110011001110110100001000000000110110001111111000010110001011011000100000100110000100000000111111111111111001100110100111000010000110100011101000111011000000000000011011011100000000000000100000100010111001000111011011110000011111111111011001001000000100110000011111110111000000100000000000011011111100001100110110110011101101100000000100100111000100100101001001000101000111111111001111101111111111011011001000000100111111111100011011000101001
111111111000110110001101100100000000101100100000100110011001001000110110111001001111001000001011011000100110111011000100100100100110111011001001111001001100110100100110110011101001011111111001101101011000000110010100000010111111111101011011011000011011011001010010000011101100001101001100000010010100100110010011000100110110001001001000110110111111111100110110100100100001000010100110110111110110010011111000100110100100100001001001000100000111111111100110111000100110100011100111000000100100110100100100011001000011001000011001001001001111000000000111111111011011001001100001
110010010101101101010101101001001000001101101001101101011001001001101101110010010100110010010010010001100110000010010101101101101101101010010010010010010001101101100100110011010111011011001010010101001101101001101011101101100110010010111001100010110010010010101110011010001101101000011101001101101010010101100110010001101101101010011010010101110010010101110010100100110001001101101101100100110011010011001110110010100110011011001101001101101100111111010000100001101010011010010011100010001001101011001101010011011011001001110010010010010101101101101110010010011010010101101101
110000001111110100000111011000000000010100011011100000000111111111100000010001111001011111110010110100001011111000100000001111110111000000011111111000011100001111000001111000000000111111111011111000011110000000111101111111000010111100111111100100011111101001011000011111101000010010110011100001010011110000111111111100001111000011111100000111110111111000011101001001001011111000110110000111011111100110110110000000001011111010110000001011111000001011111110000000111111101010100010000111010110101101011110000110111010000001111000000110000111001011110111110000011111000001011100
001101100010010110100110010010010000100010011011011000100110010011011001101100110001101110101100110111011101010001101110010011110010001101100110001101001110011001011011001000000000000100110101100010010011101011001100110011001100100110100100010001101101101110010011001101110010010100100010110011001101100010001101101111011001011101100101110011001100111011101100110011001100110010011001001011101111101100100011011001011001100100010011110011011001001111110011011011011001011101100010011101101100010110010011000000110000010010001101100101110010111011001100000110001101110110010010
101100101010011010110110000000000000011010100011011000000010110011011011111100100001011111100001001101101001101101101010110010001011011100000101101101001010010011110101101010111101000001101110011010011011000000011011000011111110110110010110100101001101101100100101001001110010010010110010011001011110110000000001101101001011101001011101001010100101011001101011010111100010010110011110000001011111000000000111101001001011011110110000000011011100000111010110100101001011101011011111100001011010011001011010010100000010110000110110100111100000000011011010110100100011010010011010
010110100000011111001101011000000000011100011111111001001010011111110100011000011011101110100101111100000001111011000001001001100110110101101011011100001111111111111111001111111111111111111001111010001001001000000100111111111000000100011111111100011110111001010100000111110001010001100101101101001000110011000001011111110011010001011100100110000000110100001100001000001000000001111110111000000000000010010111111111011001010000111000100001011110000000110010110000001111100001110100001001000100111101011111000000101011001001111111000000100011111111111000100100011011011101001110
011001101110010010101100010110010000101100010110011001101100010110010011001101100011001100001100110110011011010011101100110010100110010000100110001101110100110011110011001000000000001100110001101110110011001010011001110010001001100111001100110011001101001100110010011001100110011001100110100010001001100110011001101110010001010011001001100110001101111010011101100110010101100010110011001111001111101101110010011001011001000100110011100110011111001010101110011110011001110001101100010011001100110100110011000001100101100110011001100001100110010010010101001111011101101100110010
010011001101101101101101101000100000101101100100110110101101100101110011010010101010011001011010010000010010010010010101100100101101010110010001010010011101101010010010010101101101111001001010101101101010010010010010101010010101101101101101100010011010010001101010010011101101101100101101100010010100101101010010010010011010010011011010001101011001001010010011101100010101101101001100100010010010101101100010010011010010011101100100101100010111111111101101101011010010010011001010010010100101101001101011101101101101101101010011101010101101100110100001101101010010101100101101
101100110010011100001110011111010000001110011110111000100000011000111100001100110001100110001100011111011100110001100000111001000111001001100011001100011110011101111011000000111000001100111001100011110111000010101100000111001000111011000110011111000101001100011111011000110011000001100011110011001001110011001100111111000100111000110101000011101100011111000110000111001101110001110011100111000110111000100111011000001000110000111001000111001111101110110111001111000100111000010111011000101100011100111000000100111001111001111000110001100011000111001100111001001100111100111000
000111101111000011111011100111110010110011100000100111111101000000000111010111000100011001111011000001110110001100011011100110011000110111010000100011100001100110000110111001001110111001000110001110001000011111000001110000100011000111111000010010111000010011100111100000001100111110011100101100010110011100111000000000110110100110001000111100011001100100100011001001111111011000000100111110001001101111000000110111100110000001111110111000000010111100001100111101110000001111001000111110110011000011000110111011000001111110000111111110011100111000010011001110110011000111100010
001010010100101001101101001100101010101101001100101101101101001100101101001011010110100001011010110011110110010010100110101001101100001011110100011010110001111101011010110100001010110100110100101101100101001110100001110100101101001011100101001010110100010010110011010100100101101100101011110110100100101011010110110010110100010110100010110100011011110010110101001011010100101101100001011110110100011110000011010110110100100001001011110100101011010110101011111010010100010100101001011110100101011010110101101001011101001011001011010010010110110100101101001011110100001110100101
011001001110100101001101001111011001110101000100110111001001001110110100001001011110100100011010110110110110010010011001100101100110110011001001001011110100110110000110010000001000010101000010101101101110001111001001100100110001001011001001001011110110001010110110010110001101101001101001110110110101101101111110110110110110110110111000100111001000110010100101001001011011101000100110111010100101110011010110110110110110100001001011110110100011011011101111111110110110010001101010010010110100100100110101001001000101001001011011001011010110110100100001011010011011001110110100
101100111111101000100111000011000000111010000111000000000110001111011000101000011000110011000100111111000100011000111010111000000111100000111011101010011110001110110001110111101000100110111000111001111011000001111010000111100110111000000111001000100111000111101110001100111000100100111001111001000000111001000110111000000111011000110000010111000001111001000111111011000100011000111000010000110111100100111111000100000100111111011000110111000100100111111000100111000110001000111111000100001110011010111100001110001111011000111000011111000101000111000100111101001110011110111000
111000111000111110000111001100011010001110001000111000000000111000111000111000101011000111101000111111000111110000110000111010000111000111000111111000111001001110111000100000111000110000111000111001000111000000111000000111100000111100000111000111000111011000111111000111100111000000111000101111000000111001111000111111000111111000111111000111111000111111000111000111001000111000100111000111000111101000111111000111001000111000111000000111100111000111110011000111000111110000111111000111011100011000111100000111101100111000111000000111000011000111000110111000000111001100111000
111001101000010110000010111111111111000011111000000111111011010000000000000111110100000000111111000111111100111110000000000001110000000111000010000111110000000000000000000011001001111011011000000111110111111110100111110010000100100001111011010011110010111111000111110100011011111000001110110010011000001111111111110000000000000011111111110000101100000110100000000000100111111111000010000100111010111111111000000100000000100011001111111110010010111000001101001000110110110100001111111111100101111010100000001111111011111111001111111001111011010110111101101000001001111110110000
101100100011011000110010110010010010001010011011001000010110110011001011100100111001001011101100100001001001101101100010010011110011000100100111100110011011001011101101001110101101100100111011010010011001001001001011011011000110110110110110110101100100101110110100101101010011010011010010011001001110010010001101101001001001101001001101111000101101001101001001010101101000010011011011000011001111111100111101001000001001011110110101010011011100000101010011000101001001101001010001101101011010011011011010010110111010100111110100100101001010011001010100110100101000110101010010
110011011101100100011101101101101000001101100100100110011001101101100110110010011110010011010011001100100110100010011001101110001101100010011001010010110101101110010110010001001000011011000010011101101100110100110010101100110011011001101101101110010010010001101110010010001101100011001101101100110010011101110010010100100110110110010010001101011011001110010010001101110001001101100100110110010011010011101100110010100110010001101100101101100110011111101101111000110110010010011101100010010001101001101111011011001001001101010011011010001101100100100011001001110011001001101101
011111000000001111001110111010110001000111100000111111111000011000011110111110000111000100111100000011111000111100001000101111000000111111000001111110000011110000000111101000111100111110000100000111000011110100001111100000111000111111100001111111101000111100001111110001000111001100001111000111001000001111111000110111111000111101000111101000111010101111000011000010111000011111000111110111000010111101000001111000111000000000111001101000111111111000000111001111111000110101000001111000100011110010000111111001110000111000110111000111110000100000111000001111110000110000100111
000001001100110110111001100100110011110101100100110111111001100100110111110001000111111100000001110000110011001110001011101010001100111111001100011101100101100011001011011001100110011011101110001100100110110111110000101100111011000001110000101000010111011001100001010110000110011110101100100110111010001110111011110000111011101110110010001110011001010100011001111100001110100110000100011111111000000011111000110001111111100001100011111110110011011011000100111110010010100011001100110011010011100101110011111001000001100100000011001010001100111110110000000011110011100101000011
011010111100001011001110100001110000001110100000011010101001010001011110011110100101001011110100001110100101110001011111110000110100001110100001011110100011110001011100001001010000100000011101011010000011110100011010100001111001011110000011110110100001010100101010101101100001001101011110110100001001011010110000111111100001110100001011110001011110101100001011011110100101001110001011110111101111110001011010110101100001011001010100110101001111110101001011110110100001100001011011110000101011110110101011001010110001010110001010110010110001110001001001011110100001011110101001
011011011101100100001001001000100010110011011100100100001001001110100100011011001110110111011011001110110110010010110101100110101101100010011011010010011101100100010110110001001001011011011100101101100100100100110011111100110001001011001001011010010110010001101010100110001101101001001101101100110101101001110110010110100100010110110010010110011011111110010110001101110001101101100100100110110010001011011110100110110110100001001011101100110111111111001001101110110100010110100011010110001101001010100100001001001001001001011011011010001101100100100101001001010011011010111101
111001110010011101011110101000000000001110001000111010000000000000111001111100100011000010100000101111011100110001110000011001000111001100100100111000001010011111111011010111111111110000100001111010000111000010011000000010001100111111000100111111000110011000111111001000110011100001100011000101100001110001000000000111000011111000000111000111001000111111000010010011111000100101000011011111000010100000100011111011010000110101111000000010101111111111100111001111000000111000010111001000011101000000011101001000100101111000111101100111100010000000000100111001000000110000111001
100100111010111111110110100000000000110110110011011010110100100011011111100100100011001011101001000001011011001001001010011011011011011101001001101001001011011010001001011100100100111011100110110100011011011001011011011011001110110101110110100101001001101100001001011011110110110110110100001011011110110100001011011001011010011001011001001011100101001011001001100111001010110110011010110011011011101100100001001001011001001100100100011011011101011111110110100001011001011001001100001001110110100011011010100100110100100110100100100101100100001011010110101101011110100011010110
101111110000111110000111001000000000100011001011001000000001111110111000001000111000100011000110111111001000111001100110101000110111100001000001100010011111001100111000000111000000111111111000110011111001000001100100011111111100111100000111111000011111100010011010001111111001100000110011110011000000110011000111111011100011001000111100010111110111111011100110110001000000011001111010110101110111000111111111011001000100111110001000000011011100000100111011111000000111111000110111000100000110111110011100000000100111000000111000110000110111000001101100111010001100011110011000
110111011001100111110011100001100010110001101001100011010011001011100110100111001100110011110011001011101110001100110111001100011001110100011001110010001011100110001101110000000100010011001110011001011100110101100010011001100110011001111011001000110011110011001111000110011001110110011001011000110110011001100111011000100111101110011110011001110001101100110011011001100111001100011100111100111011011001001000100111100110011011001100011001100100111111011101100001100011000110011001101110110011001010001110100010001011001101100110011110011000011001100111001100100010001011001110
100111111011100011111000110000111001110001100000000111111000000011000111110111000111011000111000000000111111000111011111000111011000111111110000100111100000110111000111101000000111011111000111000110111000111111100000111000111111000011111000011000111000100111000001110001000110111111001100001100111110001110111011000000111000001111000000111100111111000000111000011000111111000100100100111111111000001010001000011100110111000111000111111000100000111110001101111001111000000111001100111000110001110011100011111001000100000111000111010110011000111000100111000011111001100111000011
010011100000111001001100110101011011010101011000111111111000000000111111111000100111000100011101000000111011100011001001110010001100111111000000111101100001110011111110000000111111111001000010101110000111011110110001000110111000101110000000101111001000111000100001110011000111011110000111001110111010101100111000000111111000111011000111001100001100110111011000000110111000100111000111111111001000111111000010111111111001000000110111001100011111111000000110111111110000111010100000111011010001110101100011111001000000111111010011101110101010101000011000110111110001100000110111
000001011110100101101101100000100100110101101110100101110100100110000011100011010011110100001010000001011110011010010011110100101001101011110000001010010001011110001011010100001011110110000111100101110100101011100101010000001111001011110100101011010010000010110011010010100100101110100101100011110100101111111110000001011110011110000001011011011011010011010001001011010110100100110100101011110101110110000000011010011110100100001111111110100011111111100000011011011100010010101001011010110100101011110101100101001100101111100001010100010110111100100101001011110100101011110100
101101101010010110010010110000000010010010110010010110010110100010010010101101001001001011101101001101001011101101101010010010010010010101101101101101001110010010101001011110100101110110110010010101010010110010010110011110000100101101010110100101101101101101001101101000010010110010010100110110010010010110101101101101010010101101010101001011101101001001001010001011011010010110010110010011111011100110100101001001001011010110100101010010110101101111110110110101011010101001110100101001010010110011010010010100101010100101100101101101001011010010010110101101010110001011010010
